/**
  ******************************************************************************
  * @file    gesture_cnn_data_params.c
  * @author  AST Embedded Analytics Research Platform
  * @date    Thu Apr 25 20:34:12 2024
  * @brief   AI Tool Automatic Code Generator for Embedded NN computing
  ******************************************************************************
  * Copyright (c) 2024 STMicroelectronics.
  * All rights reserved.
  *
  * This software is licensed under terms that can be found in the LICENSE file
  * in the root directory of this software component.
  * If no LICENSE file comes with this software, it is provided AS-IS.
  ******************************************************************************
  */

#include "gesture_cnn_data_params.h"


/**  Activations Section  ****************************************************/
ai_handle g_gesture_cnn_activations_table[1 + 2] = {
  AI_HANDLE_PTR(AI_MAGIC_MARKER),
  AI_HANDLE_PTR(NULL),
  AI_HANDLE_PTR(AI_MAGIC_MARKER),
};




/**  Weights Section  ********************************************************/
AI_ALIGNED(32)
const ai_u64 s_gesture_cnn_weights_array_u64[1617] = {
  0x3dc5ebdc3e81626dU, 0x3ead65663e9ee817U, 0xbc1b9725be90ab4cU, 0x3e4a9be13e80dc6dU,
  0x3e0f0318bd927a5bU, 0x3e257ba83e8255a7U, 0xbd8e00853d3eabfdU, 0x3d9512a53de1af0eU,
  0x3dc13ef1be98c5f4U, 0xbe83472e3db8811eU, 0xbd66ec793e2cdaf0U, 0xbe02bb13be85ceabU,
  0xbe1a900fbe3241caU, 0x3e5382f8be229895U, 0x3bb30d713dcd6a22U, 0x3e05f3c6be02686dU,
  0xbdf22b26be0ebe96U, 0x3e2760353dfc4bddU, 0xbdc95c233e5f993cU, 0x3e2a9ccbbcfb616eU,
  0x378e87883e0b9b31U, 0xbdccfd30bdbe9a97U, 0xbd904a163d5906c0U, 0x3d2b8415be36c265U,
  0xba4737023d5be4c0U, 0xbe314118bdd5de12U, 0x3e527d4dbe253a08U, 0xbd82c538bd910354U,
  0x3e37b3913e9ad774U, 0x3d91ea333d472398U, 0xbe5de7cfbe874003U, 0xbdf69ed0bdcfdbfdU,
  0xbe8c52ddbd6b7e98U, 0xbe4db7983e3d3627U, 0x3e99e1e2be280062U, 0xbe01e10abe1bfa85U,
  0xbc1189773de139ccU, 0x3deb2a703e5be643U, 0x3e318acc3ec00995U, 0x3e2b02173d5c4cb7U,
  0x3e0a7b813e62edddU, 0x3e594910bd87ec94U, 0x3e28bf6f3d4feee2U, 0x3e0d84bdbe31dad1U,
  0x3e204becbdbfcbe8U, 0x3d15824c3e3e2f39U, 0xbe0f05513dadf0f4U, 0x3e16959b3d0366aeU,
  0x3e8560e5bbe86b88U, 0x3e1f54213debcabeU, 0xbe3b37823e25e190U, 0xbd74e1d5be7967d0U,
  0x3df310d93e4bf22eU, 0x3dcb0267bdc712b7U, 0xbe9620f3bdd32566U, 0xbdcb9153bb9c8dddU,
  0x3e1649b03ddb56c5U, 0x3dec302b3e1a43f6U, 0x3d5dc542bc372714U, 0x3df3d399bde819f5U,
  0x3d6fac9a3d868fb7U, 0xbcaa3fa9be1479d6U, 0xbe1368d3be2f91d0U, 0xbd1cda46bd93bea4U,
  0x3e05a963be393f7dU, 0x3dab5079bde87334U, 0x3e345f663b047849U, 0x3e3a5031bd95f2d6U,
  0xbdfe1d5abcba3926U, 0x3e2bc63bbd9d927aU, 0x3e55b9803e277290U, 0x3dcd18453cfc6de8U,
  0x3e44e5a3be16c713U, 0x3dfd7c933c57dc8bU, 0x3c366806bcc92df0U, 0xbc7b54023e546f26U,
  0x3ddf5d493e054026U, 0x3e8db4273db0601fU, 0xbe424d3fbe6ce1e6U, 0x3e98f8b9bdc4e50aU,
  0xbdc25b883e35df2cU, 0xbe911c1dbe90bcfbU, 0x3d770167beada921U, 0xbd170c9cbea30bdbU,
  0x3e25a9a9bd934d42U, 0xbe2de55e3cc57d99U, 0x3cfd96a9bc3ed05cU, 0xbe4efaeb3cae4a95U,
  0xbdf3ae86be809ea3U, 0xbb3ece6e3ea56d33U, 0x3dd119543d52f75eU, 0x3db199633d697110U,
  0x3e93d0c43e5c1df9U, 0x3b9a9d163d2cb7a9U, 0xbe27300b3dc29f5bU, 0xbe235b51be82b13bU,
  0x3dd52b47be31c61fU, 0x3e137cc3be2b39fcU, 0x3e731fc83e7c07efU, 0x3e4dfdf13d467c82U,
  0x3e733a50bc91571bU, 0xbda40a263ddf05f6U, 0xbd0fc32fbd35865aU, 0x3e37abc43e29d2b7U,
  0xbddfd74e3e0090b6U, 0x3c2e6c22be862d6cU, 0xbd136c483b8480a2U, 0xbe10f9e1be883316U,
  0xbe0a56aa3da0a5c2U, 0xbe85e9553e4ef354U, 0x3ccb56a2be0b62eaU, 0xbe2b03b43e22dc39U,
  0x3e461ac53bc010fbU, 0x3d109ce93e48cd61U, 0xbe0145973e4942c1U, 0xbcdd91283e397e7dU,
  0xbc9362703deae144U, 0xbe0835f2be7eba01U, 0xbe1309573dd9d95aU, 0x3e27145e3d2ca909U,
  0x3e1547ddbe0d0a64U, 0x3e5a174bbd7381e0U, 0xbc7a2ff3bdc77d9cU, 0xbdbec75cbe714e4cU,
  0x3db805493e5f22d5U, 0xbe72b6dcbe4462c2U, 0x3cc3744f3dfd4876U, 0xbc1a76f73e39e902U,
  0x3e71f16c3e929263U, 0x3e80d8a63de07c12U, 0xbd9f58893e1fd73dU, 0x3e7a07a8bdce916dU,
  0xbebe9bf6bdc8e896U, 0xbdedefadbe158bd2U, 0xbe3907acbee6b1c9U, 0x3e8e9745be048821U,
  0x3db2c2b2bcb9112aU, 0xbe3cf82bbe5f0e99U, 0xbd95e20c3e46e781U, 0x3e494046bdc2f981U,
  0x3df954a23c203ae8U, 0xbe85994bbdeecf42U, 0xbda72828be6b17cdU, 0xbdbedbaa3e58b4f2U,
  0x3c16cde73e08f47fU, 0x3ca744a83e91cfc6U, 0x3c2af0223e051d11U, 0xbe3c98f63e69b5f0U,
  0xbca8ee623e8bfd4eU, 0x3e73c5a5bd43658dU, 0x3d99965b3d9dc8efU, 0x3cfedc35bcab979aU,
  0x3e47cb763cb0cfcbU, 0xbeda1eb33e1b983cU, 0x3e173058be60ce85U, 0x3dfee9be3e30c30cU,
  0x3e4f1f8bbe1cb922U, 0xbe56eb033c82de40U, 0xbcb585f3bdb505edU, 0x3e8721ccbdddfb10U,
  0x3cc8aceb3ddabde8U, 0x3d66bafabcf87696U, 0xbf1f0d3dbeadb709U, 0xbe6d619ebdf7b3e7U,
  0xbe6aab8bbcf24e36U, 0xbe6703b8bd359e9fU, 0x3ceeb36abe0546f1U, 0xbe39b5783e26abe9U,
  0x3e26c1f1bdaf8f25U, 0xbe7b3e3e3e45c93dU, 0xbe12ac39bdc68d3bU, 0xbc5dfca23e9b191bU,
  0x3de85e8bbc6e7c9cU, 0xbdf06561be410094U, 0x3e738ad9bde314b2U, 0x3e2576d3bd12bf41U,
  0xbe5b3ac03e757002U, 0x3e324f58bc59cb06U, 0xbce2147f3e84ee2eU, 0xbc617905bd67554aU,
  0xbd87ce22be4055a8U, 0x3e210f5dbce784daU, 0x3da63c2cbe55615cU, 0x3e30b6dbbb454330U,
  0x3d6938c13e631cdeU, 0x3d16912a3e4bcb7fU, 0x3e5eab3bbd573c98U, 0xbe410cc1be13bfc9U,
  0xbdd164343e3f35bbU, 0xbe29440cbe09f9d7U, 0x3e4a133abe2d967dU, 0xbe7e51133ceaed8eU,
  0x3e284850bdf7421dU, 0xbe6eb8043e02c2bcU, 0x3e634821be3ff66dU, 0xbd9eb91a3d504324U,
  0x3d066aa33d8749f5U, 0xbe1d389a3c0e8a79U, 0xbe1895bd3decb396U, 0xbe30bf5ebe790069U,
  0x3e1cc578bd452ee4U, 0xbe84fd72bdfdd8afU, 0xbe294615be5bea62U, 0x3e4ed98f3d0beb32U,
  0xbe4c086e3dee4363U, 0xbe281107be4f8ebfU, 0x3d6b0e983d90f4a2U, 0xbd361dffbe39ed99U,
  0xbe1d067a3e588a9cU, 0x3d9e3f9ebe0da800U, 0x3e47029c3c5aa8f3U, 0xbd3ae96abddcad2eU,
  0xbc131b14bdade3caU, 0x3deafe64be796bfeU, 0xbe1463ad3e133865U, 0x3e3c592dbd226607U,
  0x3e861619be6b9048U, 0x3ab06bc83e29537bU, 0xbd1d0dafbde149c3U, 0x3e37b8303dc5f5d5U,
  0xbd1c7fd8bca0154fU, 0xbe3313593e23ead6U, 0x3e3cdfbebe80d633U, 0x3e7d3422bca7edd0U,
  0x3e7f07303e3f2ac8U, 0x3e63ed733d4522e6U, 0xbe0638f33de07bc7U, 0xbdcb4c31be7715afU,
  0x3e0b1eedbe10fc42U, 0x3d2984853d0283b6U, 0x3e4caaab3db45869U, 0xbd525961be575d14U,
  0x3c316337be1c8ac1U, 0xbdbf1c7b3e728ad2U, 0x3dc49d34be4c3364U, 0x3bc355133e5ad7e0U,
  0xbde838183c3d5411U, 0xbd922e153e410a98U, 0x3e878daebe0faa96U, 0x3e803788bc4f55e4U,
  0xbdbfa9293d0b5199U, 0x3e4b7f83be1aa58bU, 0xbde3e4c1be0b63bfU, 0xbd925f3dbbdad9ebU,
  0xbc3dd873bc6c96fcU, 0x3dc52930bdec8dddU, 0x3df00e4bbc96e65aU, 0x3db0ca26bc5839c5U,
  0xbd9935f9bcee03a1U, 0x3e1abdf73d17a6f4U, 0x3eccf014bdcd536eU, 0x3e1d33263e7ece6bU,
  0xbdacddcdbb834152U, 0x3e456d993e4b65fdU, 0xbda620c23d950618U, 0x3ea44c933e6d1113U,
  0xbd8eb45b3e701d6aU, 0x3c06e581be255b03U, 0xbe7563ecbe7bbcfdU, 0x3d92fe5fbeb6d6e7U,
  0x3e29c5e23e92bc94U, 0xbee5edb7bcd40738U, 0x3e650149bd040fa9U, 0xbe3bb869bdc1d5c5U,
  0xbb30fd523cc40905U, 0xbd8aae9f3d5c8644U, 0x3e5e59a1be2df54fU, 0xbea95ba23c57d26fU,
  0xbcd64f05be9400cdU, 0x3cdd7f913e820bfaU, 0xbeeab0bbbe05f044U, 0xbe175f40bda6dcafU,
  0xbe2e9caebdc5d427U, 0xbda7db953d49779eU, 0x3d73250e3cf133a5U, 0x3e60170dbe016509U,
  0x3e0f1a06bde4dd67U, 0xbe40b585be36b360U, 0x3e7f45203e7caee6U, 0x3ddc2c75bd9a0e42U,
  0xbd254a743e9372d1U, 0x3e599bf73e347670U, 0x3e4c5155be459855U, 0x3e04326dbe39c89eU,
  0x3e3ba891be4317d4U, 0x3e234ea93c0af1c4U, 0x3cc539abbdb9cfd1U, 0x3dad564a3e065856U,
  0xbb60c8e43e470badU, 0x3e88d3933e96af9bU, 0x3dff52133e1b170bU, 0x3ddcfdd63e9a8ec0U,
  0xbce82b893e8e3c50U, 0xbe1f1899be5768ccU, 0xbdaa4244bcf3906dU, 0xbe96b524bdf3636fU,
  0xbe92b1f7be83a147U, 0x3d2b7a523e819e02U, 0x3e158c92bd8eb2bdU, 0xbe8158b1bd22fea0U,
  0x3d8658fa3ddcee28U, 0xbdd7bb58bc85e9eeU, 0x3e6120563d3bc129U, 0x3e189c5d3e0ae835U,
  0x3dde7cb6be796442U, 0xbd617a1e3e7fb17cU, 0x3dbfde9f3d32702aU, 0xbe0938053d200151U,
  0xbc4f1c00be963522U, 0xbd742c853d91a018U, 0x3e72152b3d593ca2U, 0xbdf7b005be02bdbcU,
  0x3d4ec7523e221e9aU, 0xbe0874a2bdeb78eaU, 0xbd2b5d33bd5f60f1U, 0x3eb7f0163e5a0533U,
  0xbdb92def3c17d772U, 0x3e0900e5be241c7eU, 0xbca50767bda12215U, 0x3c0816723e04bc73U,
  0xbd9831a4bd1e8febU, 0x3d72fda93e0fc986U, 0xbdf65179be39bebdU, 0x3e1726833e8a6991U,
  0x3d9d7906be4fad6bU, 0x3e3e3e25bdef2ca1U, 0xbd135effbc61f473U, 0xbd949826bd5754eeU,
  0xbe483a29bb94f305U, 0x3dd6d1e93da76858U, 0xbdbb6c993e60825aU, 0x3e7506febe507804U,
  0xbe6f9d393d85dea9U, 0x3e4e97cebe3cdd94U, 0xbd326bebbd05cd96U, 0xbe2214e73e1f2298U,
  0x3e8cc126be0bf169U, 0x3e6929fdbcfeb42eU, 0x3e11c7863e73eb50U, 0x3e4ce9563d148be1U,
  0x3e14e8413e2418c1U, 0x3e33935bbcda7de9U, 0xbd8771823de6b065U, 0xbc1119913e3b1f91U,
  0xbe05de583ea1ab10U, 0x3e857400bdecd619U, 0x3dc230f83db3513cU, 0xbe60e5d9bce30d20U,
  0x3e86399ebe8577adU, 0x3e06efbebe76486bU, 0x3cf33e0f3dadae1dU, 0x3e86a4593d9fab75U,
  0xbdd71d193d3023dcU, 0x3e7d30113e800109U, 0x3e8d227fbd2fd418U, 0xbe3bda423e656958U,
  0xbe7139063eaa04c9U, 0x3e0fba0a3d5df633U, 0x3dea72673e4021a9U, 0x3c662d48bd3aba11U,
  0xbc653742be8d36adU, 0xbe8d66cabe013945U, 0xbe9c3571be6b7bb2U, 0x3e465f3bbe0f99caU,
  0xbdb06f533e2faa42U, 0x3e39adc03e27a723U, 0x3ea169f53e559546U, 0xbe22fa6d3e1870b9U,
  0x3e841b2f3e2bcb72U, 0x3d9f72bcbe782c50U, 0xbe00b494be6c46c4U, 0xbd4bfb323d1b915eU,
  0x3dac74613e5da3beU, 0x3d8d6534bddd5306U, 0x3dd0c973bc2bb7bcU, 0x3d5bea15be49e1f5U,
  0xbe2037d0bcd0d600U, 0x3c3741423e5dd3c6U, 0x3e0371063dc28c32U, 0xbe9a190abdcfcd65U,
  0xbdbb06263d8ade2cU, 0x3d880b01bd5e56c0U, 0xbde221263dd901caU, 0xbe38b5bb3cc572a5U,
  0x3d2edd2ebe3407d8U, 0xbe6289303e6b8438U, 0xbe6cc667be19ca3bU, 0x3e46282f3ddb63daU,
  0xbc86ec393e09c9b7U, 0xbde57a7c3eb6bff0U, 0x3e588abdbda6f63dU, 0x3e086bfa3d7d3171U,
  0xbccac8a8be7a60ccU, 0xb9a32ac03e81949eU, 0xbe0c1ef239c2301fU, 0x3d75ceb43de87c98U,
  0x3e4f43323e3e1913U, 0xbdcf43743ddcff6cU, 0x3e21ca233d08abf3U, 0xbd1360e5be68d56bU,
  0x3e12d836bba991efU, 0xbdf7c6a4bcd908c4U, 0x3cb56b7a3dbbbfd7U, 0xbd737afe3d983628U,
  0xbd449e2bbe7d02bcU, 0x3e9c123d3e84c761U, 0x3e315e9bb9b16cfeU, 0x3d5ce710be2e9e39U,
  0x3ddeeffcbe73691fU, 0x3df065e4bd9c3e7aU, 0xbd95ef393df78e42U, 0xbe01bf2abe0e090cU,
  0xbd71e465ba40328aU, 0x3ddd456b3d12db94U, 0xbe23969abc4bbaaeU, 0x3e1a4ebe3de5e08eU,
  0xbe410e983d331764U, 0xbd1403643d5c7ee4U, 0x3db734d7be47b1cbU, 0xbe75ae2ebc6e7e33U,
  0x3d94385c3dbf926bU, 0xbae3acbc3e82f054U, 0x3c24aa01bd283a53U, 0x3e87a2fc3e5feec3U,
  0x3e2cca4b3eb3c472U, 0xbe1257ce3eba6df7U, 0x3e8d8e08be67aeffU, 0xbe0ed38c3dabdf50U,
  0x3e06c0503dabd8a3U, 0x3e159edfbdb45057U, 0xbdeed7c0bd46f7c7U, 0x3e13cfe2be870346U,
  0xbdea4f18beb1677fU, 0xbe5b8d93becae034U, 0x3acb41b33cc947f4U, 0x3e584e913e03b1f2U,
  0xbe04d241be2463cfU, 0xbd5ed9edbe6b3c1aU, 0xbe618c30be2d23b1U, 0xbdb1ce4f3dc2de9cU,
  0x3de82ee8be15b14eU, 0xb9b204003e1c89a4U, 0xbd3ed7bfbe20380eU, 0xbe3be7b0bbd9f8b7U,
  0x3d5c1e0c3e5804feU, 0x3dd20e36bdb70e7cU, 0xbe8c3a64be50404aU, 0x3e2ed2d73e23a123U,
  0x3e08f62c3d021d98U, 0x3cac5cb13e7a50f0U, 0xbce08e6e3e66418dU, 0x3e09e231bdc64a90U,
  0x3d8bb774be6b7228U, 0x3dc3efe33d70d9cdU, 0xbd88ec553bc6ebe4U, 0xbde356223dca0b4eU,
  0x3e6ff58c3e0a16e4U, 0xbdded5df3c32b222U, 0x3e2bf7173e8bc0eeU, 0x3ed796273df38766U,
  0x3e9d593b3ea45fccU, 0x3bc234eebe591a46U, 0xbe544ff23e590596U, 0x3e4021d3be068f13U,
  0x3d39a3913e5e6053U, 0x3ea116d6be05b15bU, 0x3d9e1f033e9f5028U, 0x3e158bd93dee66b3U,
  0xbcc78cba3e245f46U, 0x3e8570c93e7434abU, 0xbdebe0053dffa921U, 0x3c7ae182be3744ebU,
  0x3e31c355be253678U, 0xbdd169073d380761U, 0xbe9620893e3199acU, 0x3e069f903ddbb042U,
  0x3e5dedb4bdb2bdc5U, 0xbd9ce7c2be0aa7a1U, 0xbdfa88df3e25aa19U, 0xbd6c369dbd1e28f5U,
  0x3e5dabc03e078847U, 0xbe06e7a13e73fa9bU, 0xbe158fdbbe17fa4fU, 0xbddc8de7be5c6bedU,
  0x3e5253753e28cf89U, 0x3e757ccfbea13613U, 0x3e325345bd9fd855U, 0xbd21e437bcea2b89U,
  0x3e0cd893bdf780c5U, 0x3e61a1293b0a5c81U, 0xbe9bb868be3137e0U, 0x3e5043a83e5ae90bU,
  0xbeb3a11cbe3e4d81U, 0xbd2c6717bd661153U, 0x3e835282be7314ecU, 0xbd8e75c73ec5ad6aU,
  0x3e4110ce3e869b60U, 0xbd9b4fc13d73e089U, 0xbe06989c3e3d371bU, 0xbd2629be3e04f723U,
  0xbd582a45bb8aa482U, 0xbe3780793e434751U, 0x3d1c0f9ebe211f7bU, 0xbcbbbe8dbd7df132U,
  0x3e1403a6be48491dU, 0xbe0855c4be8de2fcU, 0x3d3918433e4b6bd2U, 0x3d9c64a43d3215f0U,
  0x3e77813d3e1e71ceU, 0x3e34955c3e610fc7U, 0x3e5e24e0be0af227U, 0xbe43fa293cb56139U,
  0x3e26bf30bd7676a2U, 0xbd03411d3e22db62U, 0x3e3b98803e01743eU, 0x3e07ab0c3e015b95U,
  0xbcd7a8fa3e7982bbU, 0x3d65ddfd3e0e8895U, 0x3c07088f3e8af2e1U, 0x3dc6f923bd44c8fbU,
  0x3d7e4f7ebe6160a6U, 0x3d85c3843eadabefU, 0xbd8153ad3db0df63U, 0xbd849cbf3dde3030U,
  0xbe3b85043dbad384U, 0xbd80b38f3e0ec113U, 0x3da5d91b3c151f44U, 0x3e7589953da9de4cU,
  0x3e3d3d9ebd9027fdU, 0x39cddab63ce62715U, 0x3d8568e33e594a15U, 0x3c92c326bd49d9a4U,
  0x3e28291b3d1f9f2cU, 0xbe4220e6beae95d1U, 0xbe6b5e7dbddc9c74U, 0xbe1ce393bde9d8bfU,
  0x3e38e3bdbe39f3b0U, 0x3d227a0539f3c062U, 0xbd5c8610be7346a7U, 0xbe1afab33d1d68e1U,
  0xbcc460583d829688U, 0x3e3b081ebe579e19U, 0xbe1e2ad8be4fd8c8U, 0xbdf1d48f3dbe8bb0U,
  0xbda2706c3e0e8f7cU, 0xbc0fc0d0bc912710U, 0xbe06d9f6be0f3ad4U, 0xbdf1f6aabe2fc276U,
  0xbdeff01f3e30289eU, 0x3e5027f03d70fdf8U, 0xbe142cea3e2f361aU, 0x3c06d9203d15bea0U,
  0xbc90b5f03deb5660U, 0xbe225d40be0491c0U, 0xbdd905943df9c5f0U, 0xbe3fede73e6b3dc0U,
  0x3e5f09ce3d92bb08U, 0xbb6e0c803d0fe6f0U, 0x3da8219c3d952fc4U, 0xbe4ae2cfbd695d64U,
  0x3e09d21cbddb0ceeU, 0xbd0bc6c4be0b51d8U, 0x3d368ca83ce8d990U, 0x3e481e5c3dc86e0cU,
  0xbe5c7a113dc3762cU, 0xbe453662be6e53fbU, 0x3da9ae48bd52bbb8U, 0x3cbdecf0be5cc006U,
  0x3c38cb80be21935eU, 0xbe673974be50f2e6U, 0xbe6c84593e605ac8U, 0x3c7b04203e1a4778U,
  0xbe2b7952be47750aU, 0xbdec65aa3d84e5bcU, 0x3e5e6beebe20db62U, 0xbd7b1168bd10b564U,
  0xbe1837023e55ba27U, 0xbe0c14b4bd65ac17U, 0x3e19bbbf3d9a9da2U, 0x3e3829923e1e8988U,
  0xbe04eea2bdd00a89U, 0x3e149569be4abba0U, 0x3e0b9da4bd9fb870U, 0xbe6ac9783cce9b54U,
  0x3e2728723d442f9bU, 0x3e162f26be5efd2eU, 0xbe85fe833c49d8bfU, 0x3df0d7e83de1c120U,
  0x3e4391dcbe8166d0U, 0xbdd7014abe2eb4f9U, 0x3cd8af90bd963e41U, 0x3de39fb23e64ad30U,
  0xbe6127443cfb0738U, 0x3e3e09f3bd597daeU, 0xbdd5cdf1be7bb0d5U, 0xbd34834d3d7dfc66U,
  0xbd7792e5bd136258U, 0x3d30136bbd7f0ff5U, 0x3dc655bebe4f13b3U, 0xbd924b52be2fda24U,
  0xbd96dfa53dc0f74fU, 0xbe6d80993d443573U, 0xbd91aa193d1c0273U, 0x3d14e9263c65b9d8U,
  0xbd070f81be4a986dU, 0xbc957723be880d8dU, 0xbe5a123f3da59ea7U, 0xbe56d4873d1b37f0U,
  0xbe57061d3e16e30cU, 0xbce8a6aabde47d15U, 0x3e48d67a3d0b164cU, 0xbdbb47e4bda4db82U,
  0xbe4aa3d5bcd1ed02U, 0xbd02a0d1bdef1883U, 0xbe278aa73e4acb8fU, 0x3dd65db0bd8f9870U,
  0xbdcc14e0be3750ffU, 0xbcea24d1be19adacU, 0xbe2421ff3e638009U, 0x3e87767bbe2504ebU,
  0x3e783023be288f1eU, 0x3e8b924cbe05ceb0U, 0xbe0ca9b7bd7fa8cfU, 0x3e6ce4423a28c708U,
  0x3d61d69abe67f4aeU, 0x3d33de1d3e797922U, 0x3e7104d23d89b525U, 0x3d00dd9ebe0ecf0eU,
  0x3e9b69a73e7ca5f4U, 0xbb8ee71c3e09979aU, 0xbd279e6abd617bf0U, 0x3cba5c0bbe596c17U,
  0x3d672ba13e476579U, 0x3e754ce4be5305bcU, 0xbe8cba13ba900131U, 0x3bae0d313e8ade86U,
  0x3e89cd03bde2629dU, 0x3e5af7b53da00f1fU, 0x3df92af43b86a59cU, 0xbda0c3e1bde07906U,
  0x3df80edf3e9ee626U, 0x3e5d182e3eab20f3U, 0x3e822072be1de794U, 0xbd6450f8bda04a3aU,
  0xbc00fdc73ddb44a8U, 0x3e4c0e463e774ed0U, 0x3e159307bd693988U, 0x3e35e31cbea15116U,
  0xbe90981a3e3f82b4U, 0x3e0945373de56af0U, 0xbd3d7a7fbe8f05abU, 0x3c97dd22bd64155bU,
  0xbc4cbc05be38b44cU, 0xbd84b1e83dea384fU, 0x3de35e50bd911554U, 0x3d97a6db3dcae6ecU,
  0x3d10ae603e772c41U, 0xbe4eaa82bd1a0a19U, 0xbeab3e74be2901dbU, 0xbe43dce1be95d423U,
  0xbea0b9f5be11ee80U, 0x3e2a1851be143aa6U, 0xbe219b10bd46d38cU, 0x3e321dd1bde6362dU,
  0xbd6d97aa3e6852ebU, 0x3c14098d3e7683a5U, 0x3e1c353f3e8e9c8bU, 0x3d15e91cbd93c6feU,
  0xbd991e353d8ea93bU, 0xbe9854ebbcf003b6U, 0xbe0eec213e42a703U, 0xbe20925ebe9b9683U,
  0xbe6069d03dc0d47aU, 0xbe01b5e23e3252ccU, 0x3c0e4a793e4f7cb2U, 0x3e29361f3e9f3e8eU,
  0x3e27ceb5bc91c3aeU, 0x3c6025e53e7d278eU, 0xbe2e70783e9cf534U, 0xbe2dbe2a3e6c73c1U,
  0x3e122327be1da5bcU, 0xbe718844bdd67204U, 0x3dcce4ab3e66f8edU, 0xbdf5dfabbdc73781U,
  0x3d6a4438bd521c68U, 0x3e15f70cbdbdc4ceU, 0x3e536806bd70c744U, 0xbe119113be1aa677U,
  0xbd53fa843e4f153cU, 0x3dd62b203e5eeccaU, 0xbdd5f95ebcce2840U, 0x3df439803d5c0068U,
  0xbd9858603e60ae90U, 0xbdc37d2a3d943cb8U, 0xbdec7509be457086U, 0x3e44d466be55e688U,
  0x3d6fb818bdc51780U, 0x3e4a58803e4f43b6U, 0xbe57000dbd30668cU, 0x3e359f783d69ebf0U,
  0xbe25d9b7be70ac1aU, 0xbe479d78be5de532U, 0x3d1ac058be0514d6U, 0xbafe8d003e371f0eU,
  0xbe257cd2bdb1e9bcU, 0x3cc1c1c03d0a53e8U, 0x3c7c6240bdb888f2U, 0xbcfce4d0bb961be0U,
  0xbe495552bdbe95d4U, 0x3e72bbcebda86744U, 0xbdb008443e0b16aaU, 0xbe3a3346bd2f1498U,
  0x3e649568bdcfa71aU, 0x3e3210b03e7592f8U, 0xbe0824e2be42238eU, 0xbe2c0c10be014899U,
  0xbe02a184bc94c1a0U, 0xbc27e810bb27f940U, 0xbe651d81be20c368U, 0xbe35af653d434238U,
  0xbda917893dace533U, 0xbe314280bdbcd483U, 0xbdeec0a93bad7d80U, 0x3e25662a3c1aaf7bU,
  0xbd00e2f63dad6adeU, 0xbdad7c543dce8716U, 0x3d810e7b3df1eda5U, 0x3e0560c73e7f44ccU,
  0xbce035f8be80b453U, 0x3e6f9d603e17ea38U, 0x3e144c09be4fc6aeU, 0x3e8ba821be14bcafU,
  0xbdf35b72be5223aeU, 0xbe75a9023d7e8eb4U, 0x3e20cb343e0ee6bfU, 0xbe7e809bbd8e3b08U,
  0xbc9b9491be11feddU, 0x3ccae913bd8507e0U, 0xbe0a977fbd29c73fU, 0x3e611fc7bc1d0a2eU,
  0x3e8bd47ebe5a5bffU, 0xbdd303863dd88a87U, 0xbdb3b5cb3e478967U, 0xbd1d6126bd3f7709U,
  0xbe97f02f3e7dedd4U, 0xbccf8286be5aea06U, 0xbdc124ae3e6240daU, 0xbe193de33bc6d59dU,
  0xbe8cdc6b3e08523bU, 0xbe8d43ad3e0dc65aU, 0x3e16b7473c580075U, 0xbe4a1a963d20db98U,
  0xbe7aa8cfbcd126f3U, 0x3ea0e9443e7c77d6U, 0x3c444ba83e3df1bbU, 0x3e10a6e43e0ee52dU,
  0xbd1a2d9bbd8b78d9U, 0xbe3b7ecf3dd5e162U, 0x3d9c475f3e585144U, 0xbe2d4bbdbe7c2718U,
  0x3ce6947dbe822ec6U, 0xbd85e127bcf8fc3aU, 0x3e38c70a3ea9ef7cU, 0xbd2261c03e89b72fU,
  0xbccb3f6abe3a13efU, 0x3cfb0240bd31bafdU, 0xbd757be6bda54c73U, 0xbd6f4725bd7446abU,
  0xbe74495e3aaff849U, 0xbe760da3be83a8b3U, 0x3d66785c3d6f5bfbU, 0x3ea3be643e7f8aa3U,
  0xbe4009033dac214dU, 0x3e5e42d1bcf1d6e6U, 0x3d9f5ff8bdb38c4fU, 0x3d2906a1bd981612U,
  0x3e069d9e3e289f16U, 0xbe2667293e157d7bU, 0xbe29a7d13e10f96dU, 0xbe722be13cf295aaU,
  0x3e79abfc3cffc5faU, 0x3da7b48abe169604U, 0x3eb182cabeaf771bU, 0x3e1a36d73e92241aU,
  0xbdaa528b3baf31ccU, 0x3be3f1543d8519ebU, 0xbe28dc8dbd41e6a1U, 0x3de6aaf0bd9f7d32U,
  0xbd404cdebd76cc57U, 0x3dc2d9123e0dd6d1U, 0xbdacb01ebd5cf756U, 0x3c6e46b53da9c799U,
  0x3e501841bda901ccU, 0x3c671fae3e2c6fc1U, 0xbc33fd5fbe688b23U, 0x3e500ef63e17dd68U,
  0xbe0a87b23dadd3efU, 0xbdbec4e5bdf84003U, 0xbd25c06a3db880b3U, 0x3e4188e1be7c2d9cU,
  0xbe3c81f33df32b5dU, 0x3e2ab775be001c98U, 0xbde00878be2b2b8fU, 0x3d5be5df3e3902a7U,
  0xbe1761a5bc90a7cbU, 0xbe79d7083e1db360U, 0xbe7587523d0f361cU, 0xbda66ccfbe20a149U,
  0x3e4cd252bdf39b52U, 0x3e011c46bc7e12c6U, 0xbe08a64dbdc209b2U, 0x3e67cf733dd90cd2U,
  0xbde20d12be2f002eU, 0x3e1c6c513d03501aU, 0xbe1e75dabd86e150U, 0xbe52d326be1926f4U,
  0xbdfc4fcd3e68cc5aU, 0xbce17420bde0e3a7U, 0x3e1b3dadbe004ca8U, 0xbdc93e87be661165U,
  0x3dcec9a23e049a0dU, 0xbd4c148dbd2d8c4eU, 0x3e2096b1bdcbe28cU, 0xbb7d0b5a3d0b9af7U,
  0xbe3929443e0168d8U, 0xbe7d3f243e5a4c7cU, 0xbe4d0a7e3d64975cU, 0xbd649f06bd989027U,
  0xbc651866bc7fdb5aU, 0xbe175449bd26d833U, 0x3ced94d1be0fb8fcU, 0x3d2a275c3e8ed43fU,
  0x3e6ceb753cef3375U, 0x3dbe87cdbe29eb89U, 0xbe8ee0763e85b8a4U, 0x3dbb36913e19485bU,
  0x3d63abb73e63f6d0U, 0xbe5dd98d3e02fe9dU, 0x3d971518be445180U, 0x3e2bcae13e60ed4dU,
  0x3e0b1f91bd9e2896U, 0x3e42badf3da81d04U, 0xbe9f0ee63c47d9a2U, 0x3d5ffcc13e05a1a9U,
  0x3e9757b9bcafaff5U, 0x3d21ccc8be3416a9U, 0x3e2ee825be1c83c9U, 0x3dc9c7dd3e3f3ac1U,
  0x3bdb675cbe6c7437U, 0x3dab5abbbc599470U, 0xbe20ab753cc11531U, 0xbe25a472bec2e0ddU,
  0xbe018270be306802U, 0xbe3a67a0bd7b2cb4U, 0x3c0cce263df3a164U, 0x3e006d6d3d2f39a8U,
  0xbe11a467be439a7aU, 0x3d458cb13d84f6caU, 0xbd6e336abcf2fd45U, 0x3db69f5c3c6cedabU,
  0xbe5a5b0abd4887afU, 0xbe60cfd1be33caddU, 0x3de1da003dc83b75U, 0x3e05d87d3dd793d3U,
  0xbe6ddf393e8f9f75U, 0xbded6b10bd9886e3U, 0xbd1d0362bea84b7fU, 0xbea204b13bed6163U,
  0xbe11c17c3d0d97bbU, 0xbe791c953d3bdbd0U, 0xbd1382113e3357b9U, 0xbd8bb4aebe8b9053U,
  0xbd1c3899becffc64U, 0xbf0cfc09bc457387U, 0xbdfd2152be338171U, 0xbe781514be32e8fdU,
  0xbdf60176bdcab781U, 0xbd09ad4fbdb2c5c3U, 0x3e76750abe1ed85aU, 0x3c3c2b2cbe1b4225U,
  0xbe8314dabe2e85f8U, 0xbd9297c8bec1fe71U, 0x3e260926bd962c1aU, 0xbdc1a60cbbe2996bU,
  0xbdff97093e505a6fU, 0xbcc559dc3e674ed1U, 0xbd0d1b973d619901U, 0x3d3096c73e2aba77U,
  0xbde34c0dbe0c780fU, 0x3d3e4c88bea20b44U, 0xbd4921b83d56ef49U, 0x3e8c76863e67ad79U,
  0x3dd4f607bb9c9dfdU, 0x3ded8b073e779770U, 0x3d8f46343d8f3814U, 0xbe215a903d514fbdU,
  0xbca577033e33c63eU, 0x3ead71ea3e899bb2U, 0x3ea858a2bd43561aU, 0x3e82d2b63ba187efU,
  0xbe21f67bbdf01ff4U, 0x3e3749103d809949U, 0xbe0de8183deba0acU, 0x3ddae09fbe745cf5U,
  0xbd0f0e11bd0c6e3aU, 0xbe55bc4cbe7986c6U, 0x3d6af0cdbe4664d3U, 0xbe0932f1be149626U,
  0x3d88f923bd5e71abU, 0xbdd67af9be7d5aa3U, 0x3dd618f73cf8aa51U, 0xbe5aaf273e1920b2U,
  0xbde25234be779ffbU, 0x3df2c18dbd9378deU, 0xbe47600f3df8605aU, 0x3df03e3d3e48f420U,
  0x3d85972ebd170630U, 0x3c5a9306be4f80deU, 0x3d6ad2683e0fbd62U, 0xbe5581c9be536afeU,
  0x3e42fb54bd2a39efU, 0xbdb58a33bc58f32fU, 0xbe1bc128be1b9217U, 0xbe133fc1be26169cU,
  0xbe7586dc3e464e0cU, 0xbe729972bdef8717U, 0xbdb5ddecbdb4b69dU, 0x3d4e6f2bbe131749U,
  0xbbfee453be5cacf3U, 0xbe876ee63dcbf19cU, 0x3e2bf7ef3e159b18U, 0xbcb6ebc0be128b1bU,
  0xbcdaa992be138c17U, 0xbe17d1cd3e10b633U, 0xbdd6a615bd8b7681U, 0x3e568e883d9590bbU,
  0xbe030650be9c00aeU, 0x3d9949b03da3a5efU, 0x3dbcd58dbdc83396U, 0x3e0657123d457517U,
  0x3e0ef52e3e32eb74U, 0xbdccfb933db031c3U, 0x3d0d0187bdcf84b2U, 0xbda45df8be68d502U,
  0x3e4f7beb3e3f5f6cU, 0xbe05a5083c615114U, 0xbe8fd7edbe4202f2U, 0x3df71e11bd294775U,
  0x3e8783153e42d63fU, 0xbdd2ab7d3d605f26U, 0x3de9d0323e942b64U, 0x3e4ef8fa3dc2bdc2U,
  0x3e56404c3d2386eeU, 0xbc82d1db3d6ad9b3U, 0xbd6bccadbcc87e00U, 0x3cad3b40bdec3684U,
  0x3dbdb14e3d5ed9a4U, 0xbdeab421be215b3bU, 0xbd54a7923da35704U, 0x3e2121c93d49ae35U,
  0xbd6ab2f23e36e9daU, 0x3e184f92bd0d2331U, 0xbe2d773b3ea5648fU, 0x3bf4c00b3e325da7U,
  0xbe51a6a1bea4a654U, 0x3d8e0c2b3d975499U, 0x3e26f9573ce6dbbbU, 0xbdbdc9163e36f667U,
  0x3ddc6fcc3c7427b5U, 0x3c222874be2d4e36U, 0xbd07dba2be6d0051U, 0xbcf2a8583eb9f930U,
  0x3c2487aabdb1cc08U, 0xbe7938783ebacd48U, 0xbce9595ebea33c9bU, 0x3e3ab04f3e0504b0U,
  0x3ebc89b5be47304fU, 0x3d727c723e8d7972U, 0x3d3cdff9be0f2b00U, 0xbe2cad7c3e646d07U,
  0xbde083f83d3f9fb6U, 0x3e1fcb3fbe03463aU, 0xbd7ed5a3bd40ce69U, 0xbe4ee6cdbe2cfdc1U,
  0x3e13e1c13d0e1f1aU, 0x3d83612c3da259f7U, 0x3e84c5293e8f3b8cU, 0xbe662e89be93013bU,
  0x3d355be6bd55669dU, 0xbe7b12abbd6a0c6eU, 0xbe87c767bd8ad1e1U, 0xbe2e922a3ca8fd22U,
  0xbe77eab4be2336beU, 0xbbe1ab0fbdba34f1U, 0x3d908076be9444c9U, 0x3d9604bf3d67c102U,
  0xbd27189e3e039602U, 0xbd3f524e3e3ecb28U, 0x3e1a9d8c3da01baaU, 0x3e3039003e29f92bU,
  0xbbd6ceec3ce6763fU, 0x3e6cb1a33e468a1dU, 0x3d8d47b5bdfe03f2U, 0xbd692aadbe0c8fa9U,
  0x3e3e36cd3e7a2d5cU, 0x3dd3319ebd906949U, 0xbd28283dbe62fb63U, 0x3dda4031be81f527U,
  0x3e82cbbfbcfdf004U, 0x3e5ac292be827473U, 0x3e0e38dd3e1db8b8U, 0x3ebed3c4be707531U,
  0x3e433b50bdf1f151U, 0xbcb05fb03e36eeecU, 0xbdd03c0ebe6380f9U, 0xbe4767b43d8fc510U,
  0xbe0f7bea3d9b3861U, 0x3de3b0753de60431U, 0x3dcd9af03e666417U, 0x3e42f4c33e716a8bU,
  0x3dd544213e0becc1U, 0x3e27dfabbe3dd6a3U, 0x3e0736d63e23af10U, 0x3e4cf7e7bd64f4ddU,
  0xba653b2abe404d97U, 0x3e2341c33e1325b5U, 0x3ece8061be0b8690U, 0x3c2c685d3ebd0d0bU,
  0xbe449bb13d585aa2U, 0xbd8fadff3d05afc4U, 0xbe1636893daaf66fU, 0xbd68956abd9c6d8fU,
  0xbe0d6b4abe458c10U, 0xbe8c2b7cbe261bbdU, 0x3c9964b33ecb0193U, 0x3e7c60813df5bf46U,
  0x3e9225f1bdd332a6U, 0x3e630cccbdaff909U, 0xbd6bbf1fbe1a3da1U, 0xbd807074be3dab01U,
  0xbd89adf7be425fa7U, 0x3e521dda3e010ae9U, 0xbdd5f84c3d879ee2U, 0xbdbf81e2be130b5cU,
  0x3d1810df3dc839acU, 0x3e81f20ebde9f942U, 0xbd79d0343ddacd00U, 0x3dc09249be90759cU,
  0xbec45a983e760695U, 0xbe03f215be4abc1eU, 0x3e3a9509bebab345U, 0xbe8d83cfbd692968U,
  0x3e1a04c0be094a9fU, 0x3dd9b9683e70b117U, 0xbdd636be3dca415eU, 0x3e493a393eab0f35U,
  0xbccebaf7bc9b459aU, 0xbdb892f9bcfbe166U, 0xbe19de113dad6f07U, 0x3e0866f3be6b07bdU,
  0xbebfc024bc917796U, 0xbe4e5c183deb38b7U, 0x3e94e08bbda88bd2U, 0x3ec958ffbe11a211U,
  0x3ccc582f3e52a2bdU, 0x3e7b253d3dae5929U, 0xbdf999a63e0f2555U, 0xbd818940bd7fcbccU,
  0x3e84f545bb8f95edU, 0xbdfe02cb3cd9f6bdU, 0xbe15cc5cbe76aa19U, 0x3e89396c3e3a76d0U,
  0xbde72e5a3e1b4792U, 0x3d5142213ed238caU, 0x3e8052033dafffecU, 0xbd4ab5a2be00df25U,
  0xbe429311be46ce79U, 0xbcedba593e6ff9fcU, 0xbac082e7bc806438U, 0xbd1050ce3d907d6aU,
  0x3e035529be8f1cf2U, 0x3e232156be91bf77U, 0x3d40c16b3d7dad6dU, 0x3dfed110bd56c5b8U,
  0x3e5eb4d3be1f9884U, 0x3e07b94d3b2e95eaU, 0x3d22d9033bc2c6bbU, 0x3e4e48d3be040253U,
  0xbcdd008b3dee8b95U, 0xbea36accbdf541e5U, 0xbe341b303e2a3778U, 0xbe06630ebe5d9a79U,
  0xbd23550d3e37cd21U, 0xbd9f6e12bd835b3cU, 0xbd8425a2be271413U, 0x3a1ddc2dbdb1036dU,
  0x3c0f758abd914049U, 0x3e37df4dbe3033cbU, 0x3db45e8d3c22d371U, 0x3e429c303de93942U,
  0xbbfcf320bd3c2153U, 0x3c80a2353e961a7fU, 0x3e57452c3dcce519U, 0x3e687d99be6cf82cU,
  0x3c4bddac3e4c058bU, 0xbda65efebe2cd7a3U, 0xbe6172b1bd4db197U, 0x3e72ec923e2a51f6U,
  0xbdb6b8223e0dbc1eU, 0x3da318a6bd82fbc9U, 0x3d6e5d713deadf61U, 0xbdd2a01b3e6ce2beU,
  0x3e7a1debbe15c9c8U, 0xbe333ecdbd892860U, 0x3e50d2123d3716e2U, 0xbe3e7d543eb46e9bU,
  0xbe2521e9bda95bf5U, 0x3e18c6f2be57fe1dU, 0xbce456e23e60905fU, 0xbe7308e6bdfd40dfU,
  0xbdaf63b93da100fbU, 0x3e4efee9bdcc0587U, 0x3d7ab7ca3c8a9c34U, 0xbdb771f43d8deb28U,
  0x3e07feb13e446ae6U, 0xbd85ad6bbe5f4917U, 0x3e34364abe013a72U, 0xbd8f7728bd2d5bcdU,
  0xbde92ebd3e01577eU, 0xbe01d20b3d5bf659U, 0xbe27c8bbbdfecfe0U, 0x3c11a734bd85e912U,
  0xbe77a793bd7ac698U, 0x3e5538a6bc81230bU, 0x3e0c8b543e2b929fU, 0xbe7342c13d30c6fdU,
  0xbd8a3f94bde77a33U, 0x3e35da203e387659U, 0x3e25b49f3bf6ed39U, 0xbdd4220dbe2a1782U,
  0x3d9c41e9be345e40U, 0xbcd0c7c0be43ffb1U, 0xbe7df0a8bd827472U, 0x3decf9573e200da4U,
  0xbe0798503d87cb2eU, 0xbe499bbebe17b820U, 0xbdfd06c13d995befU, 0x3b2454703c586adbU,
  0x3dc2115bbde5b2f8U, 0xbdc258383a2bf009U, 0xbd9c6453be094d82U, 0xbe74497dbdb998d0U,
  0x3e0734113eb8d5a1U, 0xbe08f8e63d7f7a0fU, 0xb9ec68b73d7cc73aU, 0x3d6b4cd43daabb6cU,
  0xbe97caa13e002e7cU, 0xbcd12249bc99793aU, 0x3e5e2095be5b3d10U, 0xbdec22bbU,
  0xbbe129d2bb6d821bU, 0x3d615246U, 0xb9d01c1abd5e0bbbU, 0xbe30d5e2bc32e24bU,
  0xbce3dbc1bdaaaf5cU, 0x3cacc106be18872bU, 0x3dac342bbd378875U, 0xbc0daa0ebe328671U,
  0xbe83c4503df7dba5U, 0xbeab140dbefbb3a7U, 0xbe8cdcd9bebe1649U, 0xbe14961cbd8cb94fU,
  0x3d9b71993e9b4a03U, 0x3e1c3b093d07228aU, 0x3dad4c3a3d9d040aU, 0xbe86c7f83e8a3705U,
  0x3da5db09be9a63c1U, 0xbda4d3b8be0e7bb3U, 0x3e3e3f67be0ba1d2U, 0xbd1ee5063c8cd3e8U,
  0xbe1f4e1e3da24f59U, 0xbe11406a3dce7c63U, 0xbeaac9d53e38023eU, 0x3e60dad93dbae891U,
  0x3e033f58beb0b660U, 0xbe400cde3db0f999U, 0xbea8ef063d238742U, 0xbeaa82f83c42ab01U,
  0x3e8673c9bd208afeU, 0x3e25828ebf24a840U, 0xbd917d663e895d37U, 0x3e1b48c63ec1d500U,
  0x3d80f8803e80fae2U, 0xbe031a943d4d59e9U, 0xbe083a30bc8e7b07U, 0x3e0bbb453dd48bf3U,
  0xbeb5305f3e289a90U, 0xbc8cfba23e2029ccU, 0x3e378a183d9b441dU, 0xbe0b21fe3df587bfU,
  0xbb9880debd4901ceU, 0xbd853d333e860121U, 0xbd7d6933beefec03U, 0xbcd66b943e999807U,
  0xbe0905efbe944cf5U, 0x3e1fee883f1c858dU, 0x3f0855aa3e4aeec1U, 0x3bb84dc0be66a35bU,
  0x3edafc9dbea864ffU, 0xbe1d8f89bea88231U, 0xbe950ffb3d5c4fdcU, 0x3c24b97dbd6dfc45U,
  0x3e9b0feabdb78869U, 0xbf28ff24be8356adU, 0xbeb30be73e012a42U, 0x3e1e455abe8b8937U,
  0xbdf58658bebabd0aU, 0x3c30e7093eda96acU, 0xbe842e363ecba583U, 0x3da27741be1a87adU,
  0xbd3c39f5be95c067U, 0x3e89eba3be82ce38U, 0x3ea0af9bbe33983aU, 0x3e91cbf73e603b1bU,
  0x3e4a9fb3bd255cd0U, 0x3e959f8dbe019ac6U, 0x3daf23893e8ca4bdU, 0x3e1deaf0be99142eU,
  0xbea2ae043e622c01U, 0x3ee446e1beba8571U, 0xbea28a88beac7f43U, 0x3e94e1093da3382aU,
  0x3ea28edd3de94257U, 0xbe8d99403ea657c0U, 0x3d227994bd2d8cecU, 0xbe9e86e23e959378U,
  0xbe35df133e730036U, 0xbee2ad83bcbb4a13U, 0xbef386bb3dcf9b10U, 0xbd341de83ea413ccU,
  0xbe6fe7a2be83f44dU, 0xbdc21cac3e9875dfU, 0x3ce2db3a3e81f1efU, 0xbe4fe8353e10f182U,
  0xbe8b96ee3e60cadcU, 0x3eda76c33e9fe8f6U, 0x3ee117b13e47189fU, 0xbd70c2bbbe169cf6U,
  0x3e2a3fca3e3b0571U, 0x3e9ef1fb3e4e6154U, 0x3d2571493ec83b61U, 0x3ddac0e1be869fabU,
  0xbe8019523eb3129aU, 0x3e25a1b13f095539U, 0x3f0782103d531914U, 0xbb0d22803bc1b825U,
  0x3e215a6d3e8dbbffU, 0xbe9996c63f038e0dU, 0x3d7e995e3bd41d63U, 0x3debade5bd39339cU,
  0x3de60b55bf0f729fU, 0x3efcffaabe70a8aaU, 0xbe80c7efbf4204d0U, 0xbd917b24be576836U,
  0xbeb09d1d3eb6a37cU, 0x3d4ac85c3ec965acU, 0xbd2d25d4be7d6f40U, 0xbe72fc223e504a5cU,
  0xbe80753bbe1ab73fU, 0xbc9464b33eafe117U, 0xbe08bd33bd8f6c4eU, 0xbe6381563ea2ec05U,
  0xbe176dc23df56a08U, 0x3eb1ad793ee20c5eU, 0x3d7cbe1b3d84b15bU, 0x3e419ddb3e5dbb8eU,
  0x3e12ddb03f09ba0cU, 0xbdcac93fbdc53ba2U, 0x3eaf5a3b3e6f6e67U, 0xbd0097b8bc9d4eb5U,
  0x3e824d2bbe01b28dU, 0xbda7a99bbf00fcfbU, 0xbe93e8d13d787237U, 0x3ef76fa9be40914cU,
  0xbcd8c37fbd17e309U, 0xbe0ea65b3d50c2e0U, 0xbe826d7bbcb5d3abU, 0xbe37d99abe3094b5U,
  0x3deaadebbbc6bf33U, 0xbea767e8bf54d03dU, 0x3e041aa73eb045c1U, 0x3f0fd4a93e52a0ceU,
  0xbbf289c0befc1021U, 0x3ee10da93d72fe80U, 0xbca29dff3c2925e7U, 0xbe8c7be2be03d1bcU,
  0x3e36482e3ee4f70eU, 0x3c944190bd76df2fU, 0xbeb07f3e3e61ac2cU, 0x3e413d1e3db89cefU,
  0x3ebe33dabda5fbc6U, 0x3eb3121ebdde406aU, 0x3ed68b5bbea789dbU, 0x3d5f8c70be270d4dU,
  0x3ec72895bd3ee017U, 0x3d08d0d8be83626eU, 0xbe6ebcc83e168461U, 0xbedacac73d2e40e9U,
  0xbd2b88153de4e3fcU, 0x3e5457e43d933ddbU, 0xbec76d223e60b277U, 0x3e941629beb2bfa4U,
  0x3e8227bc3ec1e6e8U, 0xbf0b7560bec7010dU, 0xbdcf38733df1fca6U, 0xbdaf33783b045978U,
  0xbec7d9553e9d957aU, 0xbe975ae2bd80ce3cU, 0xbb90b9b53d913d6fU, 0xbea082383e93362bU,
  0xbe35597bbe1850bfU, 0xbe08ed403e12ee1fU, 0xbf33cc53bebfce30U, 0xbdd9bf04bd3044a0U,
  0x3e9ea885bdc38060U, 0xbd62c92fbe853a1fU, 0x3c9cbe773ed2d1c2U, 0x3e901a09be3989b5U,
  0xbe4bab803e76a87bU, 0x3e82ce76be43d57bU, 0xbeb4b2723eb8c02eU, 0xbd67b120beeffad3U,
  0xbdff39973e4769bdU, 0xbd059d5c3e785841U, 0x3e84b6a6bebdc84dU, 0xbe90332c3dfec496U,
  0x3cae25cc3d1ae66cU, 0x3e892f8d3ed683c0U, 0x3eca69933e9a6685U, 0xbd277e573d8620b4U,
  0x3dac2fe4be0ee8b4U, 0xbe2a0d9f3dbd71c0U, 0x3e70159dbe7e4535U, 0xbd533f2bbc052ec7U,
  0x3eb3a855bf26d3a2U, 0xbea27546bf272a3dU, 0x3c82100abeae8420U, 0xbf5e0ca93e1312c6U,
  0x3e77bbccbe82fdbeU, 0xbe46831bbceec1a9U, 0xbed661b83e9fffe1U, 0x3e7ae68e3bfcaf31U,
  0xbc9acbe93e7d098eU, 0xbde8ee3abf6f2e5dU, 0xbf17ca55be7b66d0U, 0x3e9fe0603dc5fbefU,
  0xbe235cf83efc4e5dU, 0xbf3db3ec3dd71eafU, 0x3d0f00243f057828U, 0xbea7b09f3e8bb904U,
  0x3d0aa51b3e2edf06U, 0x3ee0180c3ed42c75U, 0xbe8bc0473e11548dU, 0x3f2f7b993e555e4bU,
  0x3de308013e898dfeU, 0x3e270a8ebef0c652U, 0x3e879370be794a7eU, 0xbeafa483be77e1d3U,
  0xbebe411ebe9b9511U, 0xbd6656e03f077c0dU, 0x3e1ad9b63d41deabU, 0x3efa6dc23e4c2cccU,
  0xbea6b9edbdbc6704U, 0x3f217266bc95ed36U, 0x3ecb9d60be8d6ca0U, 0xbe9dae753da96a16U,
  0x3d9ae0eabf0d7bd0U, 0xbdaf68c8bea4d584U, 0x3ea2e06fbea1d776U, 0xbe78443c3e96e550U,
  0x3eacc6f4be326f37U, 0xbe8e86433ecfc177U, 0x3df20284be41617dU, 0xbeacfa8d3e2af523U,
  0x3e65b021be2ba4efU, 0x3ea6b757be0de0fbU, 0x3a3b1cccbe608ff5U, 0xbd2cb1613e447051U,
  0xbe121b7e3ea11ffbU, 0xbed4ac1c3e1d2801U, 0xbeeee0ee3f092e90U, 0xbe80c5af3e275cb4U,
  0x3e5ecc64be539194U, 0x3e768b273da70c9fU, 0xbdaf27533f1c73dbU, 0x3f2f1aabbe981d14U,
  0xbdf739c6beb77ad9U, 0x3e97d3dc3e8760d7U, 0x3ccc30b43e914306U, 0x3e2f9e6ebe4ee0f9U,
  0x3eb0626a3e1621cbU, 0xbe6c5e603cc9e082U, 0x3f044c9f3ec19b0eU, 0xbe0fc742be84ed26U,
  0xbe3d410bbf1654a7U, 0x3ee0bed2be3efa7bU, 0xbdd2ae8bbe884e1aU, 0x3d7b52b0be409e80U,
  0x3dc5655fbe984032U, 0xbd8809eabd92f009U, 0xbe7134543e0f0bf9U, 0x3ca5ecb8be977c18U,
  0x3e2c59eebeaac220U, 0xbe93b6ebbe8d52a5U, 0x3ec12bbfbe39d177U, 0x3e62288a3d550fb5U,
  0xbe779cc8bccce08bU, 0x3d332328bd2938dbU, 0xbe6b36133d4effdeU, 0x3df84780be4a0cadU,
  0xbddb8440be8fad58U, 0xbdf132093e78325dU, 0xbd5a25ecbe0be0bfU, 0x3e1c10eabe99fe13U,
  0xbe644f88be2a68c3U, 0x3cdf30bc3e2773b8U, 0x3e80e5de3dde9616U, 0xbe08509f3d2309a7U,
  0x3e891c1d3dbf98afU, 0xbdb8d5783e1567d5U, 0x3c9a4406bccde77aU, 0xbc0a1991babbc89bU,
  0xbf0c840bbe7173ffU, 0xbeca3c9b3f1695fcU, 0x3f324c4dbebfcef9U, 0xbdca2538be803546U,
  0x3f22f2c03eee593bU, 0xbf0633c13f627bf1U, 0xbea78c7dbef33683U, 0xbf059393bedf2d02U,
  0xbe619b05bf4cbb5fU, 0x3f0fdfe5bce28a23U, 0x3f23e3843dfad964U, 0xbce2d6653e9eca2eU,
  0xbf15722abf2fc286U, 0xbf332df2be06de81U, 0xbeab94903f2f8bd7U, 0x3e9347703f1337ebU,
  0x3ec0411dbcb7f8deU, 0xbe888c26bea547d0U, 0x3d3907293ae1e5baU, 0x3f4e97d8bee9f2d2U,
  0xbf37fac63e6936b3U, 0xbf275036bf11a06aU, 0xbec5486cbc91c47bU, 0xbb8ddae13e31632fU,
  0xbe4da17dbef756fcU, 0xbf7801583e58b0e4U, 0xbdac5c763e8db604U, 0xbeef9571bf478b25U,
  0xbd737d673f0db754U, 0xbe9d1f55bec131a8U, 0x3f068785bf153c22U, 0x3e8c70d83e161f06U,
  0x3eb525393eafa32aU, 0x3ef769f83e6abfe1U, 0xbf26032dbe851cadU, 0x3f32d4d33e1a7badU,
  0x3e224aa8be950993U, 0x3e2737253e23857bU, 0x3e76a792beafe8b7U, 0x3e2b8be9bef7cd2eU,
  0x3e8247b4be39a660U, 0xbf7de095bf000659U, 0xbecf84733ef52179U, 0xbebcc54bbd3c7a90U,
  0x3f1f3248bece07e3U, 0x3df575813e0619d2U, 0x3e21957dbe9a76c8U, 0xbec984c0bf90b76aU,
  0x3d2fa92e3eba38adU, 0x3d253fd5bdb4b37dU, 0x3da7a7b8be5ed8e5U, 0x3f4c4d173e77b804U,
  0xbd85ff1d3eefac76U, 0x3e4606babe4d500dU, 0x3f0f61be3f2aae10U, 0xbe9279c0bcd54f5aU,
  0x3f288ec63f001d26U, 0x3d2c46a53f1b72ceU, 0x3e47e51abea190c4U, 0x3f2799ab3e735036U,
  0xbe70d05e3e871842U, 0x3d931aca3e07b354U, 0x3ead53113ed076e9U, 0xbf0e9f6c3ebf0c1eU,
  0x3dda8f4e3dadcfa9U, 0x3eb2ab393dcd274dU, 0x3e5eba8ebe70b450U, 0xbcd036d33d447eacU,
  0xbe9451b73def2eebU, 0x3e6c9a1f3e64dc4eU, 0x3db81182be7003e4U, 0x3ebc09cd3e584b1eU,
  0xbe90e9efbdbfb0f2U, 0x3eabbb1a3e02f649U, 0xbcc82b903ee81075U, 0x3db0bac3becc6854U,
  0x3efe30993ebee267U, 0xbe6277aabcd5800cU, 0x3eee9521be5c75f4U, 0xbdd4ac6f3ec82286U,
  0xbe7ed29bbeb052e3U, 0x3de1a0663ea3c011U, 0xbe3860a7be950e71U, 0x3ee9d6f63dbd089bU,
  0xbe0ecf21bd019a26U, 0xbe79dbbdbebde091U, 0xbd8fb41d3c83f84eU, 0xbeb7be38be33f63dU,
  0x3e5982e93e5be278U, 0x3db6933d3c8fb8adU, 0xbec243763e315646U, 0x3e943b64bdaa4240U,
  0x3d060bbf3e000743U, 0x3e0b6f9bbebc5cddU, 0x3e8f36f53e8022efU, 0xbe55828f3e3e0e60U,
  0xbbf741d6be975f3fU, 0x3e4b7bc03e945262U, 0x3e30644fbe27d04fU, 0x3e595d10b8c84ac4U,
  0xbe24fd533e1c9b2aU, 0x3e1e2ed73e50965eU, 0x3e2aeb403e132612U, 0x3e819e773e059b04U,
  0xbd5cdc4b3e313046U, 0x3cf67f9d3e8ad77eU, 0xbcdb08fc3e8bdcd5U, 0x3e74da1f3e5a4cc9U,
  0x3dccd4a63db0da8aU, 0xbd8fbd29bd48213aU, 0x3e245a713e0e3189U, 0x3e5b60943ef62102U,
  0x3e04909b3ea3fa43U, 0xbf31a9a83b0ebfbdU, 0x3cffd759bec9a820U, 0xbe9c1bfebec77829U,
  0x3f19fd8d3ed5f004U, 0x3eab56d03e8a9c27U, 0x3e9b517bbd44eca5U, 0xbdd4027b3f0c0204U,
  0x39ffbcfa3dd8b9ccU, 0x3e619bc93ea6c154U, 0x3e100a5ebe0b52a7U, 0x3eba498a3ecddfefU,
  0xbed8df4e3ea08881U, 0x3eae5b703c9d0da0U, 0x3e7cd1b63dee2da7U, 0xbda87207bf1c9e0cU,
  0x3eb8abebbd98b198U, 0xbe69ed073e3f740bU, 0x3e884fab3e85dd1cU, 0xbde4aa743b88a4c1U,
  0x3ed5df88bfb4d9e3U, 0x3e36023e3d8e7b9cU, 0xbf8e49843cce73c4U, 0x3ede20a33ed0d69cU,
  0x3ea8d33bbde7e72eU, 0xbdaf190abf931275U, 0xbec8fe823ebb3951U, 0x3f169947be5b9f26U,
  0xbdfedce7bc3823feU, 0x3ebc2184be1a7458U, 0x3e9641483eeebb9aU, 0x3d3c41d9be2c13bcU,
  0x3f7888053f6cfb98U, 0xbc9334073e4a0e1aU, 0x3f199c6ebeb1080dU, 0x3d0dd8703e50f5e5U,
  0x3ed0e7113ddab775U, 0x3ec1beb43f2a28c1U, 0xbe413ea63ef7e493U, 0x3f26be9e3e9dbb2aU,
  0x3e5b28ab3f953b2cU, 0xbd393778bd8ea94aU, 0x3f0021cc3f82daf3U, 0xbc0353a8be4be1d2U,
  0x3f45342c3ede25b7U, 0x3e0e2d0e3f6cac73U, 0x3e5421afbe4916a4U, 0x3f8cb6b13ecceb78U,
  0xbd99871b3f163b06U, 0x3e471556bd1320a1U, 0x3f1425f73f045079U, 0x3eca0ea83eca7844U,
  0x3e6427ed3ddc2b2fU, 0x3ea497a73eda74b9U, 0xbf0af38cbe44fc55U, 0x3e4aff083cc35389U,
  0x3e5284f33dbdb4d5U, 0x3dd9b5f9be327fc0U, 0x3ed5c6e83ee5d7abU, 0xbe2ccc2ebcaff444U,
  0x3e995a4a3cfc49e8U, 0xbe0c3c5e3d4e3184U, 0x3d80b3c0be489f53U, 0x3e04e7213ea2883fU,
  0xbc3e0da53eb51ef9U, 0x3f2847013e618173U, 0x3efa5d6f3e7d41c1U, 0x3d9036a5bdba7396U,
  0x3e5eb82c3eefb8f4U, 0xbe61f2f7be0b8724U, 0x3eaf65cbbcf99ec3U, 0xbddc1f44be4f0364U,
  0xbe969884be5fc2eeU,
};


ai_handle g_gesture_cnn_weights_table[1 + 2] = {
  AI_HANDLE_PTR(AI_MAGIC_MARKER),
  AI_HANDLE_PTR(s_gesture_cnn_weights_array_u64),
  AI_HANDLE_PTR(AI_MAGIC_MARKER),
};

